#ifndef MODEL_DATA_H
#define MODEL_DATA_H
#include <cstdint>

alignas(16) const unsigned char model_tflite[] = {
    0x1c, 0x00, 0x00, 0x00, 0x54, 0x46, 0x4c, 0x33, 0x14, 0x00, 0x20, 0x00,
    0x1c, 0x00, 0x18, 0x00, 0x14, 0x00, 0x10, 0x00, 0x0c, 0x00, 0x00, 0x00,
    0x08, 0x00, 0x04, 0x00, 0x14, 0x00, 0x00, 0x00, 0x1c, 0x00, 0x00, 0x00,
    0x88, 0x00, 0x00, 0x00, 0xe0, 0x00, 0x00, 0x00, 0x5c, 0x0e, 0x00, 0x00,
    0x6c, 0x0e, 0x00, 0x00, 0xa4, 0x19, 0x00, 0x00, 0x03, 0x00, 0x00, 0x00,
    0x01, 0x00, 0x00, 0x00, 0x04, 0x00, 0x00, 0x00, 0x56, 0xf1, 0xff, 0xff,
    0x0c, 0x00, 0x00, 0x00, 0x1c, 0x00, 0x00, 0x00, 0x3c, 0x00, 0x00, 0x00,
    0x0f, 0x00, 0x00, 0x00, 0x73, 0x65, 0x72, 0x76, 0x69, 0x6e, 0x67, 0x5f,
    0x64, 0x65, 0x66, 0x61, 0x75, 0x6c, 0x74, 0x00, 0x01, 0x00, 0x00, 0x00,
    0x04, 0x00, 0x00, 0x00, 0x94, 0xff, 0xff, 0xff, 0x0a, 0x00, 0x00, 0x00,
    0x04, 0x00, 0x00, 0x00, 0x08, 0x00, 0x00, 0x00, 0x6f, 0x75, 0x74, 0x70,
    0x75, 0x74, 0x5f, 0x30, 0x00, 0x00, 0x00, 0x00, 0x01, 0x00, 0x00, 0x00,
    0x04, 0x00, 0x00, 0x00, 0x2a, 0xf2, 0xff, 0xff, 0x04, 0x00, 0x00, 0x00,
    0x0b, 0x00, 0x00, 0x00, 0x69, 0x6e, 0x70, 0x75, 0x74, 0x5f, 0x6c, 0x61,
    0x79, 0x65, 0x72, 0x00, 0x02, 0x00, 0x00, 0x00, 0x34, 0x00, 0x00, 0x00,
    0x04, 0x00, 0x00, 0x00, 0xdc, 0xff, 0xff, 0xff, 0x0d, 0x00, 0x00, 0x00,
    0x04, 0x00, 0x00, 0x00, 0x13, 0x00, 0x00, 0x00, 0x43, 0x4f, 0x4e, 0x56,
    0x45, 0x52, 0x53, 0x49, 0x4f, 0x4e, 0x5f, 0x4d, 0x45, 0x54, 0x41, 0x44,
    0x41, 0x54, 0x41, 0x00, 0x08, 0x00, 0x0c, 0x00, 0x08, 0x00, 0x04, 0x00,
    0x08, 0x00, 0x00, 0x00, 0x0c, 0x00, 0x00, 0x00, 0x04, 0x00, 0x00, 0x00,
    0x13, 0x00, 0x00, 0x00, 0x6d, 0x69, 0x6e, 0x5f, 0x72, 0x75, 0x6e, 0x74,
    0x69, 0x6d, 0x65, 0x5f, 0x76, 0x65, 0x72, 0x73, 0x69, 0x6f, 0x6e, 0x00,
    0x0e, 0x00, 0x00, 0x00, 0x78, 0x0d, 0x00, 0x00, 0x70, 0x0d, 0x00, 0x00,
    0x5c, 0x0d, 0x00, 0x00, 0x34, 0x0d, 0x00, 0x00, 0xe4, 0x0c, 0x00, 0x00,
    0xd4, 0x0a, 0x00, 0x00, 0x44, 0x0a, 0x00, 0x00, 0xb4, 0x00, 0x00, 0x00,
    0xac, 0x00, 0x00, 0x00, 0xa4, 0x00, 0x00, 0x00, 0x9c, 0x00, 0x00, 0x00,
    0x94, 0x00, 0x00, 0x00, 0x74, 0x00, 0x00, 0x00, 0x04, 0x00, 0x00, 0x00,
    0xda, 0xf2, 0xff, 0xff, 0x04, 0x00, 0x00, 0x00, 0x60, 0x00, 0x00, 0x00,
    0x0c, 0x00, 0x00, 0x00, 0x08, 0x00, 0x0e, 0x00, 0x08, 0x00, 0x04, 0x00,
    0x08, 0x00, 0x00, 0x00, 0x10, 0x00, 0x00, 0x00, 0x28, 0x00, 0x00, 0x00,
    0x00, 0x00, 0x06, 0x00, 0x08, 0x00, 0x04, 0x00, 0x06, 0x00, 0x00, 0x00,
    0x04, 0x00, 0x00, 0x00, 0x01, 0x00, 0x00, 0x00, 0xeb, 0x03, 0x00, 0x00,
    0x0c, 0x00, 0x18, 0x00, 0x14, 0x00, 0x10, 0x00, 0x0c, 0x00, 0x04, 0x00,
    0x0c, 0x00, 0x00, 0x00, 0xa6, 0xec, 0x51, 0xef, 0x33, 0x0b, 0x12, 0x09,
    0x02, 0x00, 0x00, 0x00, 0x02, 0x00, 0x00, 0x00, 0x04, 0x00, 0x00, 0x00,
    0x06, 0x00, 0x00, 0x00, 0x32, 0x2e, 0x32, 0x30, 0x2e, 0x30, 0x00, 0x00,
    0x46, 0xf3, 0xff, 0xff, 0x04, 0x00, 0x00, 0x00, 0x10, 0x00, 0x00, 0x00,
    0x31, 0x2e, 0x31, 0x34, 0x2e, 0x30, 0x00, 0x00, 0x00, 0x00, 0x00, 0x00,
    0x00, 0x00, 0x00, 0x00, 0xa0, 0xf2, 0xff, 0xff, 0xa4, 0xf2, 0xff, 0xff,
    0xa8, 0xf2, 0xff, 0xff, 0xac, 0xf2, 0xff, 0xff, 0x72, 0xf3, 0xff, 0xff,
    0x04, 0x00, 0x00, 0x00, 0x80, 0x09, 0x00, 0x00, 0xe6, 0x71, 0x30, 0x3f,
    0x0f, 0xf3, 0xd7, 0xc2, 0x25, 0xf3, 0x04, 0xc1, 0xcf, 0xda, 0x90, 0xda,
    0x14, 0x4c, 0xed, 0xec, 0xae, 0xb6, 0xa2, 0xdf, 0xe4, 0x28, 0x06, 0xdd,
    0xc3, 0xdf, 0xce, 0xf1, 0x1c, 0x69, 0x13, 0xfa, 0xba, 0x0b, 0xd9, 0xf9,
    0x14, 0x45, 0x12, 0xdf, 0xdd, 0xf5, 0x09, 0xef, 0xfe, 0x23, 0x06, 0xd8,
    0x17, 0x16, 0x03, 0x9f, 0xf8, 0xe6, 0xe8, 0xef, 0x48, 0x08, 0x4f, 0x20,
    0x7f, 0x3a, 0xd3, 0x1e, 0x62, 0xcb, 0x01, 0xed, 0xe1, 0x3b, 0x94, 0xca,
    0x04, 0xf5, 0xdf, 0x1f, 0x16, 0xf7, 0x1c, 0xd8, 0x12, 0xf6, 0x1d, 0xea,
    0x11, 0x7f, 0x42, 0x03, 0xe9, 0xde, 0xaf, 0x0a, 0x73, 0x1d, 0x1f, 0xd7,
    0xba, 0xaf, 0x03, 0x20, 0x68, 0x13, 0xbb, 0xeb, 0xbb, 0xcd, 0xde, 0x2e,
    0x2b, 0xce, 0xad, 0xe6, 0x21, 0xfe, 0xee, 0x42, 0x17, 0xda, 0xbe, 0xf8,
    0x00, 0x3e, 0x41, 0x1d, 0xff, 0xec, 0x07, 0xe1, 0x09, 0xd2, 0xec, 0x2b,
    0xea, 0x11, 0xfd, 0xd4, 0xd5, 0x48, 0x1c, 0x0c, 0x30, 0x33, 0xb1, 0x0b,
    0xf6, 0x07, 0x16, 0x1f, 0xbc, 0x36, 0x18, 0x33, 0x3e, 0x07, 0x7f, 0x66,
    0xf9, 0x21, 0x00, 0x05, 0x48, 0xd7, 0x23, 0x36, 0x40, 0x2f, 0x1b, 0xb1,
    0xeb, 0x57, 0x39, 0x25, 0xd9, 0x00, 0xb4, 0x08, 0x0d, 0x1a, 0xcf, 0xe8,
    0x02, 0x4b, 0x14, 0xa8, 0xb0, 0x08, 0xd0, 0xf0, 0x00, 0x1d, 0xd6, 0xdd,
    0xd6, 0x4d, 0xec, 0x2f, 0xca, 0x01, 0x1c, 0xeb, 0xdf, 0xbc, 0x9b, 0x39,
    0x48, 0x25, 0xfe, 0x17, 0xe5, 0xf2, 0xed, 0x06, 0x8c, 0x86, 0x47, 0xc8,
    0xa1, 0x10, 0xeb, 0xdd, 0xa7, 0x81, 0xb8, 0x15, 0x23, 0xe4, 0xf5, 0x1d,
    0xef, 0x39, 0x42, 0x03, 0x04, 0xca, 0x10, 0xf1, 0xff, 0xfd, 0xe9, 0x32,
    0xf7, 0x20, 0x07, 0xee, 0x13, 0xff, 0x01, 0xd4, 0x3a, 0xec, 0xf2, 0xd6,
    0xf6, 0x07, 0x32, 0x1b, 0x2e, 0x0a, 0x0b, 0xf5, 0x11, 0xf8, 0x18, 0xef,
    0x05, 0x1c, 0xf1, 0xe0, 0xe6, 0xe7, 0xd9, 0xee, 0xef, 0xed, 0xcf, 0xee,
    0xf4, 0x02, 0xe3, 0xcd, 0x33, 0xf9, 0xf8, 0x07, 0x06, 0xf2, 0xe6, 0xe7,
    0x81, 0x01, 0xf6, 0xef, 0xd1, 0xe7, 0xe4, 0xe6, 0x03, 0xf2, 0x0b, 0x0a,
    0x44, 0x1b, 0xd5, 0x03, 0x18, 0x1d, 0x3b, 0xf7, 0xdc, 0x0a, 0x12, 0xfd,
    0xef, 0xec, 0x03, 0x35, 0x68, 0xf6, 0xf0, 0xfb, 0xf6, 0xcf, 0xe7, 0xfd,
    0x40, 0x00, 0x2a, 0xe8, 0xe1, 0xf0, 0x01, 0xe4, 0x1e, 0xe2, 0xd9, 0xea,
    0x0e, 0xdb, 0xf8, 0xe5, 0x09, 0x02, 0x2f, 0xec, 0x20, 0x19, 0xe2, 0xe3,
    0x18, 0x0a, 0x02, 0x0b, 0xe3, 0xf8, 0x1b, 0xe4, 0xf6, 0xe9, 0xf5, 0x0b,
    0xd9, 0xeb, 0x20, 0xe3, 0x81, 0xca, 0xfc, 0x06, 0xc6, 0x1b, 0x08, 0xf3,
    0xeb, 0xe5, 0x28, 0xf3, 0xc7, 0x26, 0x2e, 0x0b, 0xe3, 0x47, 0xc1, 0xbd,
    0xfe, 0x16, 0xde, 0xd0, 0x02, 0xd9, 0xd9, 0xd4, 0xae, 0x2d, 0xda, 0x1c,
    0x74, 0xf3, 0x2c, 0xe8, 0x32, 0x57, 0xec, 0x25, 0xd5, 0x52, 0x0c, 0x35,
    0x01, 0xf6, 0x36, 0xf7, 0xd6, 0x10, 0x30, 0xef, 0xf4, 0xfb, 0x17, 0x1e,
    0x1b, 0xf9, 0xcc, 0xdd, 0xe0, 0xf5, 0xd3, 0xbd, 0x1a, 0x38, 0x02, 0xe3,
    0xcd, 0xd9, 0xd5, 0xfc, 0x09, 0xfa, 0xcc, 0x00, 0x81, 0x84, 0x13, 0x1b,
    0x93, 0x17, 0x32, 0xe2, 0xa3, 0xc1, 0xd5, 0x33, 0x18, 0x46, 0x53, 0x01,
    0x14, 0xfa, 0x2e, 0xf4, 0xf5, 0x4d, 0xca, 0xe3, 0x49, 0xd3, 0x10, 0xc5,
    0xe6, 0x2c, 0x35, 0xee, 0xe2, 0xe6, 0xf9, 0x47, 0x81, 0x7c, 0x3e, 0x2d,
    0x38, 0xb1, 0xc5, 0xec, 0x2c, 0x6c, 0xe8, 0x0e, 0xfa, 0xbd, 0x0b, 0x18,
    0x49, 0x37, 0xe0, 0xbc, 0xa7, 0xd3, 0xe2, 0x30, 0xe2, 0x02, 0xe0, 0xce,
    0xff, 0x2c, 0xfb, 0xe6, 0x60, 0x09, 0x28, 0x1e, 0x2c, 0x07, 0x60, 0x60,
    0x4d, 0xca, 0xef, 0x06, 0xea, 0xa4, 0xa5, 0xeb, 0xf1, 0x10, 0xb2, 0x2e,
    0xc3, 0x1b, 0xc9, 0xb7, 0xdf, 0x19, 0xa6, 0x33, 0xb3, 0xec, 0x0f, 0xe8,
    0xbc, 0xb3, 0x34, 0xc8, 0xd8, 0xe7, 0x0d, 0xe4, 0x06, 0xdd, 0xf8, 0xda,
    0xfa, 0x04, 0xe2, 0xd0, 0xf6, 0x0a, 0xbd, 0xf1, 0x09, 0xd0, 0x19, 0x22,
    0x0e, 0xde, 0xc7, 0xfc, 0x33, 0x15, 0x16, 0x06, 0xf4, 0x11, 0x06, 0x48,
    0xe9, 0x19, 0xe3, 0x27, 0x30, 0x2f, 0x0e, 0x7b, 0x0d, 0x24, 0x0e, 0xcd,
    0xdd, 0x0a, 0x3e, 0x5c, 0xa3, 0xb1, 0x0b, 0x04, 0x81, 0xed, 0xf4, 0xdb,
    0xdf, 0xa6, 0xdd, 0x0d, 0xfa, 0x16, 0xfd, 0xb5, 0xe8, 0xc1, 0xbc, 0xc2,
    0xc7, 0x03, 0x0e, 0xf1, 0xba, 0x41, 0x57, 0xf0, 0xee, 0x10, 0xd4, 0x2f,
    0xd2, 0x7f, 0x44, 0xfd, 0xb3, 0xd7, 0xe9, 0xea, 0x24, 0x17, 0xfa, 0xbf,
    0xd2, 0xdf, 0xad, 0x0b, 0xdf, 0xd0, 0xeb, 0xc3, 0x15, 0x21, 0xfa, 0xf5,
    0xc6, 0xdc, 0xc9, 0xce, 0x2b, 0x44, 0x07, 0x1c, 0xf1, 0xcd, 0xc6, 0xc8,
    0x3d, 0x3c, 0x1c, 0xe6, 0x2b, 0xff, 0xfa, 0x20, 0x3e, 0x2c, 0xd4, 0x2e,
    0x75, 0xdf, 0x29, 0x25, 0xc1, 0x1a, 0xf1, 0xcb, 0xb5, 0x03, 0x1c, 0xb8,
    0xc7, 0x16, 0xd8, 0x0b, 0xf5, 0xcb, 0xd6, 0x2b, 0xee, 0x0e, 0xa4, 0x41,
    0xcc, 0x20, 0x48, 0xfb, 0x28, 0x42, 0x06, 0xbb, 0x10, 0xde, 0x11, 0x0f,
    0xf9, 0x17, 0x00, 0x07, 0x53, 0x20, 0x05, 0xd1, 0xea, 0xf1, 0xe6, 0xf0,
    0x2d, 0xb5, 0x21, 0xb9, 0xf4, 0x06, 0xaf, 0x08, 0x33, 0xd1, 0xce, 0xeb,
    0xeb, 0x20, 0x11, 0xb3, 0x3f, 0xc0, 0x19, 0x0e, 0xf0, 0x04, 0xd7, 0xbf,
    0x95, 0x81, 0xe9, 0x10, 0x8a, 0xc5, 0xb3, 0x06, 0xc9, 0xf6, 0x0c, 0xc9,
    0xf8, 0x10, 0xe8, 0xf7, 0xef, 0xdf, 0xf9, 0xe9, 0x04, 0xe5, 0xea, 0x17,
    0xf9, 0x0a, 0x00, 0xed, 0xf8, 0xf3, 0xe3, 0x1a, 0x05, 0xf5, 0x14, 0xe4,
    0x13, 0x05, 0xee, 0x17, 0x20, 0x0a, 0xfa, 0x04, 0xda, 0xe6, 0x06, 0xf5,
    0x10, 0x25, 0x21, 0x04, 0xf3, 0xf0, 0xf6, 0x24, 0xfa, 0x00, 0x04, 0x16,
    0xda, 0xe7, 0xeb, 0xf9, 0x1e, 0x13, 0xed, 0x05, 0xf2, 0xee, 0xdd, 0x12,
    0xf4, 0xfa, 0x12, 0xeb, 0xea, 0x49, 0x10, 0xfe, 0x7f, 0x20, 0x19, 0x0b,
    0xfa, 0x35, 0xf0, 0x10, 0xc0, 0xd2, 0x0f, 0x40, 0x95, 0xa2, 0xca, 0xad,
    0xe8, 0x09, 0x5d, 0x4a, 0x15, 0x1c, 0xd8, 0x10, 0xff, 0x2a, 0x15, 0x5d,
    0xc5, 0xed, 0x36, 0x4b, 0xce, 0x31, 0x2f, 0xd2, 0x31, 0x99, 0xf5, 0x3a,
    0xfe, 0xa3, 0x17, 0x1d, 0x4e, 0xde, 0x45, 0xcb, 0xbc, 0xe3, 0x3a, 0xb3,
    0x27, 0xb7, 0x21, 0x30, 0xdd, 0x03, 0xb2, 0xeb, 0x08, 0x28, 0xf7, 0xe0,
    0xfe, 0xf6, 0xb3, 0xc1, 0x57, 0x60, 0x41, 0x39, 0x5c, 0x3d, 0x22, 0xb6,
    0x0d, 0x06, 0x2e, 0xe5, 0x45, 0x64, 0x81, 0xbd, 0x7f, 0x62, 0x38, 0xeb,
    0x5d, 0xe4, 0x2f, 0x21, 0x4b, 0xf2, 0xd0, 0x46, 0xcb, 0xeb, 0x3a, 0x2c,
    0xb7, 0x35, 0x1d, 0x16, 0xdf, 0xf8, 0x6a, 0x12, 0x46, 0xf9, 0x07, 0xe5,
    0xe0, 0x2a, 0xd1, 0x15, 0x18, 0xbc, 0x2f, 0xf6, 0x36, 0x23, 0x1f, 0x2d,
    0xc2, 0x33, 0x32, 0xb7, 0xc4, 0xc9, 0xfc, 0x27, 0xf6, 0xeb, 0xcb, 0x24,
    0x17, 0x50, 0xf6, 0x36, 0xf7, 0x15, 0x49, 0x4f, 0x08, 0xd5, 0x52, 0xcb,
    0xeb, 0x28, 0xce, 0xb7, 0xe5, 0xbd, 0xc5, 0xb6, 0xe8, 0xd2, 0x79, 0xaf,
    0x0e, 0xc7, 0x25, 0x26, 0xd8, 0x23, 0x24, 0x35, 0xcc, 0x2a, 0x59, 0x24,
    0x25, 0xc8, 0xe7, 0xdf, 0xc5, 0x0e, 0xf2, 0xbe, 0x4d, 0xd1, 0x18, 0x32,
    0x21, 0xb5, 0xc6, 0xdd, 0x01, 0x13, 0x0a, 0xc9, 0x2b, 0x93, 0xfa, 0xea,
    0x1a, 0x13, 0xe6, 0x01, 0x16, 0xf0, 0x1f, 0xf0, 0x07, 0xfd, 0xde, 0xf2,
    0x6d, 0x96, 0xfe, 0x0c, 0x11, 0x4c, 0xfa, 0x1f, 0x4c, 0x1d, 0x06, 0x24,
    0x40, 0x53, 0xea, 0xfa, 0xd4, 0xd7, 0x0c, 0xe3, 0xb9, 0x36, 0xcf, 0xe9,
    0x34, 0x81, 0x2a, 0x26, 0xaa, 0xc9, 0xcf, 0xe9, 0xb4, 0xd2, 0xf9, 0x5b,
    0x36, 0xd3, 0xf4, 0x13, 0x3b, 0xa6, 0xb3, 0x37, 0x18, 0xee, 0xa8, 0x89,
    0x5f, 0x42, 0x1d, 0x33, 0x4f, 0xf4, 0xc9, 0xd2, 0xc1, 0x2f, 0x0f, 0x13,
    0x19, 0x09, 0xfd, 0xca, 0x20, 0xe4, 0x0a, 0x0a, 0x01, 0x04, 0xff, 0xd5,
    0x19, 0x01, 0x2b, 0x4d, 0x11, 0x16, 0x07, 0xde, 0xff, 0x2d, 0x1c, 0x7f,
    0x40, 0x1b, 0x66, 0x1a, 0xd7, 0xfc, 0x42, 0x4e, 0xaa, 0xd0, 0xde, 0x0c,
    0xa3, 0x03, 0xdf, 0x11, 0x3b, 0xf2, 0x70, 0xe7, 0x2d, 0x52, 0xd3, 0x1c,
    0xb3, 0xc2, 0xd2, 0xe3, 0xdb, 0x6a, 0x68, 0xea, 0xd7, 0xf8, 0xb9, 0xf8,
    0xe3, 0xec, 0x73, 0x0e, 0xcb, 0x89, 0x07, 0x2e, 0xba, 0x1f, 0x62, 0xca,
    0x2a, 0xd5, 0xc6, 0x26, 0xdc, 0x1a, 0x7f, 0x24, 0xf5, 0xc7, 0xd1, 0xcb,
    0xdb, 0x09, 0x48, 0xc4, 0x15, 0x06, 0x45, 0xec, 0xcd, 0xe3, 0xf0, 0x2f,
    0xfc, 0x03, 0x13, 0x0e, 0x58, 0x20, 0x0f, 0xef, 0xe1, 0x54, 0x2b, 0x66,
    0x05, 0x11, 0xd6, 0x31, 0x3a, 0x16, 0x86, 0x1b, 0xf5, 0x23, 0xa2, 0x30,
    0x13, 0x17, 0x54, 0x53, 0xdf, 0xdd, 0x36, 0xff, 0x29, 0xcf, 0x21, 0xe7,
    0xe0, 0xf0, 0xf3, 0xf2, 0x14, 0x25, 0x24, 0x24, 0x02, 0xc1, 0x0c, 0xc6,
    0xb1, 0x9e, 0x2c, 0x13, 0x27, 0xc1, 0xde, 0x04, 0xf4, 0xf9, 0x46, 0x43,
    0xbf, 0xe9, 0xbb, 0xab, 0xc3, 0xcf, 0xfc, 0x6f, 0x3e, 0xee, 0xb9, 0xd9,
    0x81, 0x2f, 0x60, 0x60, 0x46, 0xf5, 0xcc, 0xa2, 0xa2, 0x1a, 0xa8, 0xe7,
    0x38, 0x2a, 0x09, 0x4b, 0x57, 0x37, 0xc0, 0xd9, 0x77, 0xe7, 0xf2, 0x44,
    0xdd, 0x24, 0xcf, 0x31, 0xaa, 0x35, 0xf7, 0xd9, 0xfb, 0xe5, 0x40, 0x45,
    0x39, 0x48, 0x41, 0x29, 0x55, 0x61, 0xe7, 0x02, 0x6a, 0x56, 0x34, 0xe1,
    0x6b, 0x0a, 0xf7, 0x15, 0xfe, 0x75, 0x29, 0x2d, 0x5c, 0x60, 0x3f, 0x27,
    0xbf, 0x31, 0xac, 0x00, 0x39, 0x41, 0x36, 0xc7, 0x15, 0x20, 0xa1, 0x21,
    0x0c, 0x19, 0x02, 0xe5, 0x3a, 0xf2, 0xdd, 0xb0, 0xd2, 0xbe, 0x37, 0x1e,
    0xe6, 0x39, 0xf7, 0x0f, 0xfe, 0x2a, 0x44, 0xce, 0xba, 0x7b, 0xf2, 0x7f,
    0x67, 0xf5, 0x16, 0xea, 0x32, 0x2d, 0x1c, 0xc6, 0x40, 0x3d, 0xe3, 0xc3,
    0x00, 0x25, 0xe3, 0xfb, 0x2e, 0x62, 0x9f, 0xb1, 0xe0, 0x7f, 0x49, 0x94,
    0xe8, 0xd6, 0x20, 0x2e, 0x3a, 0x4b, 0x16, 0xec, 0xc7, 0xb6, 0xeb, 0xf8,
    0x48, 0x19, 0x02, 0xfa, 0x18, 0xc6, 0xfc, 0xfa, 0x01, 0x18, 0xe4, 0xeb,
    0x31, 0x20, 0xcb, 0x5f, 0x13, 0xba, 0xe8, 0x00, 0x47, 0x28, 0x05, 0x0b,
    0xf9, 0xbd, 0xed, 0xec, 0x3b, 0xc6, 0x2c, 0x35, 0xdb, 0xea, 0x14, 0xc2,
    0x4b, 0xf9, 0xc3, 0x48, 0x47, 0x41, 0xf8, 0x28, 0xeb, 0x79, 0x0a, 0xca,
    0xe1, 0xea, 0x31, 0x0d, 0x15, 0xa3, 0x2c, 0xce, 0x04, 0x7f, 0x20, 0x51,
    0xc1, 0x48, 0xc9, 0x42, 0x15, 0xe1, 0x43, 0x2a, 0x18, 0xe9, 0xf2, 0xf4,
    0x17, 0x02, 0xfc, 0x0e, 0x6d, 0x2c, 0xf9, 0xbb, 0x2f, 0x53, 0x35, 0x15,
    0x0b, 0x1e, 0xb8, 0x01, 0xb8, 0x33, 0x35, 0xb7, 0xbe, 0xe0, 0x0e, 0xbb,
    0x43, 0x42, 0x1f, 0xa9, 0xe7, 0xba, 0xe9, 0x46, 0x10, 0x16, 0xe0, 0xe3,
    0xf6, 0x0a, 0x3e, 0x0e, 0xea, 0x76, 0x15, 0xfc, 0xf3, 0xbc, 0xee, 0xfb,
    0xb4, 0x24, 0x31, 0xd3, 0xbe, 0x06, 0xdb, 0x13, 0xfd, 0xe7, 0xe1, 0x1f,
    0xe3, 0xe7, 0x12, 0xf4, 0xef, 0xf2, 0xdd, 0xe7, 0xfd, 0xf1, 0x16, 0xf8,
    0xfb, 0xf0, 0x03, 0xcd, 0xc4, 0x23, 0xd1, 0x13, 0x14, 0x35, 0xf3, 0xdc,
    0x01, 0xda, 0x0d, 0xff, 0x0f, 0x18, 0x25, 0x18, 0xf1, 0x01, 0x20, 0xf0,
    0xf4, 0xe1, 0xd7, 0x13, 0xf7, 0x3b, 0x0f, 0xfd, 0x14, 0x03, 0x30, 0x12,
    0x0e, 0xff, 0xfb, 0xf0, 0xc2, 0xe0, 0xde, 0x11, 0x81, 0xae, 0xc8, 0x02,
    0x8e, 0xf2, 0xd6, 0xe9, 0xb8, 0xb8, 0xc1, 0xde, 0x93, 0x0b, 0xe3, 0x3d,
    0x54, 0xdd, 0x19, 0xce, 0xba, 0x57, 0xa1, 0x52, 0xd9, 0xdd, 0xd0, 0xee,
    0xa6, 0x5d, 0x39, 0x5f, 0x27, 0xb2, 0xa3, 0xe8, 0xd3, 0x62, 0xdb, 0x41,
    0x1c, 0x8f, 0x81, 0x2c, 0x95, 0x56, 0x2b, 0x33, 0x2f, 0xa9, 0xfb, 0xd1,
    0x84, 0x4a, 0xac, 0x9f, 0xa9, 0x32, 0xbf, 0xbc, 0x92, 0xf8, 0x0a, 0xf1,
    0x97, 0x1f, 0x28, 0x2c, 0x45, 0xb6, 0x26, 0x9e, 0xc7, 0x22, 0x7e, 0x27,
    0x6f, 0xdf, 0xd5, 0xea, 0x06, 0xc3, 0x27, 0xd4, 0x68, 0xbc, 0x37, 0x14,
    0xfd, 0xcb, 0xa7, 0x46, 0x05, 0x05, 0x72, 0x41, 0xe4, 0x86, 0x21, 0x2b,
    0x00, 0xeb, 0xdd, 0x61, 0xdd, 0x2e, 0x93, 0xf2, 0xed, 0xce, 0x11, 0x06,
    0x45, 0x0d, 0xf4, 0xb4, 0xc5, 0x12, 0x07, 0xc9, 0x09, 0x04, 0x93, 0xb6,
    0x15, 0x1e, 0xd8, 0x56, 0x63, 0x3a, 0xcd, 0x08, 0x30, 0xa8, 0x37, 0x5d,
    0x07, 0x5b, 0x53, 0xfe, 0x44, 0xc8, 0x0d, 0x7f, 0x19, 0xf1, 0x42, 0x3c,
    0xf5, 0xec, 0x2f, 0x21, 0x90, 0xea, 0x61, 0xd1, 0xb4, 0xb4, 0xaa, 0xae,
    0x3f, 0xeb, 0x3e, 0x22, 0xd7, 0x3b, 0xe1, 0xb4, 0xed, 0xe1, 0xf3, 0xef,
    0x2f, 0x00, 0x39, 0xcb, 0xd3, 0x36, 0xdb, 0x51, 0x19, 0xf8, 0xec, 0x1e,
    0xb6, 0x27, 0x26, 0x12, 0x61, 0xe9, 0xc6, 0x0f, 0x05, 0xe7, 0x46, 0x12,
    0x23, 0x1b, 0xdf, 0x38, 0xe2, 0xc3, 0xc0, 0x35, 0x01, 0xeb, 0x38, 0xe1,
    0xf5, 0x0b, 0xf2, 0x0c, 0x43, 0xd2, 0xe6, 0xef, 0xeb, 0x26, 0x1d, 0xf2,
    0xce, 0x20, 0xa3, 0x01, 0xe3, 0xbc, 0x37, 0xbe, 0xa2, 0xcb, 0x13, 0xda,
    0x81, 0xf1, 0xb6, 0xe3, 0xe5, 0xff, 0x4a, 0xf5, 0xfe, 0xea, 0xde, 0xf9,
    0xe5, 0x01, 0xf4, 0xec, 0x07, 0xef, 0xf7, 0x01, 0xf4, 0x07, 0xec, 0x10,
    0x0b, 0xe4, 0x19, 0x0c, 0x1c, 0xf6, 0xef, 0xe8, 0x00, 0xfc, 0xe5, 0x03,
    0x04, 0xdc, 0xf8, 0xe0, 0xe9, 0xfb, 0x00, 0x04, 0x06, 0x10, 0xed, 0x09,
    0xd4, 0xfd, 0x05, 0x0f, 0x2a, 0x0f, 0x15, 0xda, 0xdc, 0xf7, 0xf5, 0x09,
    0x17, 0xf5, 0xe7, 0xf7, 0xe8, 0xe2, 0xdc, 0x10, 0xec, 0xe7, 0xe8, 0xfe,
    0x19, 0x23, 0x0e, 0x22, 0x7f, 0x0d, 0xec, 0x1c, 0x10, 0xfe, 0x0b, 0x02,
    0x26, 0x02, 0x03, 0xdb, 0x15, 0x1b, 0x06, 0x02, 0xdb, 0x07, 0x31, 0xfc,
    0xd1, 0x06, 0xda, 0xda, 0x17, 0x04, 0x25, 0x09, 0xf1, 0xe3, 0x1c, 0xc1,
    0x0e, 0xd8, 0x1c, 0xc3, 0xfa, 0xe4, 0xdf, 0xfc, 0xdb, 0x26, 0x25, 0xea,
    0x0e, 0xeb, 0xe6, 0x0c, 0x37, 0xfb, 0x29, 0xfa, 0x24, 0x04, 0xd7, 0x02,
    0x1c, 0xeb, 0xf1, 0xdf, 0xd9, 0xe2, 0x15, 0x19, 0xd6, 0x13, 0x0c, 0x03,
    0xb4, 0x01, 0xe2, 0xf0, 0x81, 0xa5, 0x1b, 0xf4, 0xd9, 0xfe, 0xe3, 0xf0,
    0xe4, 0xa9, 0xe5, 0xe3, 0x0a, 0xeb, 0x09, 0xfd, 0xf4, 0x0a, 0xf3, 0x00,
    0xe4, 0xe4, 0x20, 0xc7, 0x02, 0xf0, 0xd5, 0xe3, 0xfc, 0xd4, 0xb5, 0x19,
    0x3a, 0xdd, 0x0a, 0x38, 0x10, 0xd0, 0xbd, 0xdf, 0xee, 0x14, 0xc8, 0xb5,
    0x05, 0x3b, 0x24, 0x10, 0x03, 0x47, 0xfe, 0xd2, 0x0d, 0x45, 0x97, 0x34,
    0xed, 0x20, 0x28, 0xf8, 0x2a, 0xef, 0x32, 0xef, 0x48, 0x07, 0x1d, 0x04,
    0xe0, 0x2d, 0xba, 0xd7, 0x1f, 0xcf, 0xb6, 0x8e, 0xff, 0xf4, 0xf1, 0x3c,
    0x21, 0x17, 0x41, 0xf5, 0x30, 0x7f, 0x17, 0x2d, 0xca, 0xe3, 0xc7, 0xb9,
    0xbb, 0xf7, 0x1a, 0x30, 0x20, 0xff, 0x0f, 0xd0, 0xdd, 0x0a, 0x32, 0x2a,
    0x50, 0x03, 0xe8, 0xe4, 0x04, 0x20, 0x99, 0x7d, 0xe1, 0x59, 0x37, 0xe7,
    0x24, 0xc9, 0xfe, 0x2c, 0xda, 0xfc, 0x31, 0x0e, 0x1f, 0x0d, 0x2f, 0x5e,
    0x35, 0xc8, 0x81, 0xe1, 0x33, 0xfe, 0x76, 0x64, 0x09, 0x7e, 0x16, 0xfe,
    0x29, 0xf1, 0x60, 0xd9, 0x65, 0x45, 0x0b, 0xa4, 0x89, 0xce, 0xd5, 0xa6,
    0x44, 0x2a, 0x39, 0x44, 0x26, 0xdb, 0xf6, 0x93, 0x51, 0x2e, 0x67, 0x32,
    0xe1, 0xd6, 0xe8, 0xff, 0xf5, 0x0a, 0x00, 0xef, 0xe9, 0xfb, 0x15, 0xef,
    0xe3, 0xec, 0xdf, 0xfa, 0x08, 0x06, 0x11, 0xdf, 0xfc, 0xfb, 0xe1, 0xe6,
    0xe3, 0xfd, 0xe0, 0x1a, 0x1f, 0x05, 0xfb, 0x29, 0x16, 0xf6, 0x04, 0xf7,
    0x12, 0x16, 0x16, 0x04, 0x02, 0x1c, 0x0c, 0x06, 0xeb, 0xfd, 0xf0, 0xf0,
    0x05, 0xf4, 0x12, 0x09, 0xf9, 0xf5, 0x24, 0xca, 0xe0, 0xee, 0xf6, 0xf5,
    0xdf, 0xe3, 0xeb, 0xfc, 0x81, 0xab, 0x09, 0xe9, 0xa2, 0xe7, 0xf8, 0x06,
    0xcb, 0xbd, 0xd7, 0x0f, 0x4e, 0x49, 0x39, 0x01, 0x3f, 0x42, 0x0d, 0x4d,
    0x43, 0x19, 0xe3, 0xda, 0xaf, 0x07, 0x28, 0x01, 0xe9, 0x0d, 0xe1, 0xf3,
    0x12, 0xaf, 0xeb, 0x6c, 0xf4, 0xd7, 0x06, 0x26, 0x10, 0xcb, 0x36, 0x1d,
    0xf3, 0xe8, 0x1a, 0x07, 0x27, 0x29, 0x49, 0x26, 0x12, 0xfb, 0xd2, 0xbd,
    0xc0, 0x0f, 0xf4, 0xe6, 0x2c, 0xd6, 0xf4, 0xd1, 0x08, 0x12, 0xfe, 0xd5,
    0x2e, 0xd8, 0xfa, 0xe8, 0xfc, 0x22, 0x0d, 0xdc, 0x21, 0xbb, 0xcb, 0xf0,
    0xb8, 0x21, 0xb0, 0xf2, 0x0e, 0xfc, 0x7f, 0xc5, 0x3b, 0x09, 0xd4, 0xe7,
    0xbd, 0xcf, 0x09, 0x4a, 0x56, 0x25, 0xf0, 0xee, 0x6a, 0xcc, 0x22, 0xe6,
    0xd6, 0xf0, 0xe4, 0xdf, 0x07, 0x0a, 0x31, 0xd5, 0x4c, 0x4e, 0xd3, 0x34,
    0xb5, 0x4e, 0x30, 0x25, 0xef, 0x4c, 0xd0, 0xbe, 0x01, 0xc8, 0x12, 0x4f,
    0x5d, 0x05, 0x1f, 0xfd, 0x06, 0xed, 0xea, 0xff, 0xe5, 0xf6, 0x04, 0x01,
    0xe3, 0x0d, 0x18, 0xf5, 0xc5, 0xea, 0xe2, 0xd7, 0xa8, 0x1f, 0xe4, 0xf8,
    0x81, 0x02, 0xb7, 0x27, 0xb9, 0xcb, 0x9b, 0xf4, 0xde, 0xce, 0xca, 0xfb,
    0x11, 0x2b, 0xc7, 0x1b, 0x20, 0x3d, 0x33, 0x19, 0x49, 0xd1, 0xee, 0x2a,
    0xc2, 0xe3, 0xff, 0xf3, 0x4e, 0x0a, 0x09, 0xe6, 0xef, 0xc6, 0xeb, 0x03,
    0xf3, 0xdb, 0x07, 0xdc, 0xdc, 0xe5, 0xcb, 0xd5, 0x24, 0xf8, 0xd9, 0xe4,
    0x16, 0x13, 0xbc, 0x1f, 0x15, 0xac, 0xc9, 0x16, 0xf8, 0xdf, 0xd3, 0x0b,
    0x41, 0xed, 0xe1, 0xbf, 0xc3, 0x25, 0x09, 0xde, 0x15, 0xdc, 0xd9, 0xde,
    0xf7, 0xf4, 0xbe, 0x25, 0x81, 0xdb, 0x02, 0xf8, 0xc4, 0xec, 0xe8, 0xfc,
    0xfa, 0x03, 0x39, 0xfb, 0xfe, 0xfc, 0xff, 0xff, 0x04, 0x00, 0x00, 0x00,
    0x80, 0x00, 0x00, 0x00, 0x6c, 0xff, 0xff, 0xff, 0x0b, 0x01, 0x00, 0x00,
    0x4d, 0x03, 0x00, 0x00, 0xd6, 0x02, 0x00, 0x00, 0x05, 0x01, 0x00, 0x00,
    0xfc, 0x04, 0x00, 0x00, 0xe5, 0xfd, 0xff, 0xff, 0x94, 0x02, 0x00, 0x00,
    0x62, 0x07, 0x00, 0x00, 0x42, 0x08, 0x00, 0x00, 0x7e, 0x03, 0x00, 0x00,
    0x65, 0x04, 0x00, 0x00, 0xa1, 0x03, 0x00, 0x00, 0x29, 0xfe, 0xff, 0xff,
    0x68, 0x0b, 0x00, 0x00, 0xa0, 0xf0, 0xff, 0xff, 0xfa, 0x07, 0x00, 0x00,
    0x25, 0x0a, 0x00, 0x00, 0x63, 0x05, 0x00, 0x00, 0xe1, 0xfe, 0xff, 0xff,
    0xf4, 0x04, 0x00, 0x00, 0x58, 0x01, 0x00, 0x00, 0x8a, 0x05, 0x00, 0x00,
    0x63, 0x03, 0x00, 0x00, 0x29, 0x03, 0x00, 0x00, 0x00, 0x03, 0x00, 0x00,
    0x36, 0xfe, 0xff, 0xff, 0xfa, 0x02, 0x00, 0x00, 0xca, 0x02, 0x00, 0x00,
    0x8e, 0x00, 0x00, 0x00, 0x30, 0x04, 0x00, 0x00, 0x9d, 0x00, 0x00, 0x00,
    0x8a, 0xfd, 0xff, 0xff, 0x04, 0x00, 0x00, 0x00, 0x00, 0x02, 0x00, 0x00,
    0x0a, 0xf1, 0x7f, 0x22, 0xeb, 0x50, 0x12, 0x25, 0xa3, 0x74, 0xd3, 0xbb,
    0x68, 0x1e, 0x2e, 0x09, 0xd2, 0xf2, 0x18, 0x58, 0x56, 0xe7, 0x6c, 0x67,
    0xee, 0x0b, 0x00, 0xc5, 0x55, 0x4d, 0x25, 0x3c, 0xf2, 0x5e, 0x21, 0x1e,
    0xf0, 0xdf, 0xcf, 0xfd, 0x3f, 0xb4, 0x7f, 0x5e, 0xb9, 0x17, 0xfd, 0x0d,
    0x73, 0x03, 0x3d, 0xfa, 0xc2, 0xdf, 0xb8, 0x08, 0xf4, 0xf3, 0xcb, 0xd8,
    0x2b, 0xb4, 0xdf, 0x34, 0x68, 0x64, 0xb5, 0xb2, 0xc4, 0xda, 0x17, 0x25,
    0xc4, 0xf9, 0x3c, 0xfe, 0x8a, 0xa8, 0x2f, 0x3f, 0x7f, 0x68, 0xff, 0x3e,
    0xfd, 0x6c, 0x42, 0xd5, 0x0b, 0x35, 0x78, 0x33, 0x12, 0x1f, 0xb0, 0xfc,
    0xc5, 0xf1, 0x25, 0x21, 0x48, 0x62, 0xc5, 0x3b, 0x02, 0x23, 0xdb, 0xcd,
    0xe8, 0x1d, 0x09, 0xcc, 0xe5, 0x0f, 0xea, 0xf6, 0x75, 0x41, 0x32, 0x1a,
    0xce, 0x59, 0x05, 0xf6, 0x7f, 0xc9, 0x3b, 0x5a, 0x19, 0x15, 0x28, 0xe0,
    0xd8, 0xe2, 0x13, 0xd8, 0x2d, 0x0b, 0x7f, 0x4b, 0x18, 0xea, 0xf0, 0x09,
    0x13, 0x27, 0x3f, 0x09, 0xfc, 0x3d, 0x0d, 0xed, 0x5c, 0xf2, 0x0f, 0x17,
    0xd8, 0x03, 0x01, 0xd5, 0x23, 0x16, 0xf3, 0xf3, 0x04, 0x0d, 0x49, 0x13,
    0x49, 0x2e, 0x7f, 0x32, 0xe9, 0xf2, 0x0f, 0xfc, 0x07, 0x24, 0x2e, 0x48,
    0x1c, 0x51, 0xbd, 0xd6, 0x74, 0x3c, 0x37, 0xee, 0x9a, 0xd1, 0xba, 0x02,
    0x14, 0xf9, 0xde, 0xea, 0xe3, 0xd7, 0x2b, 0x1f, 0x07, 0x1f, 0xdd, 0x24,
    0xd8, 0x23, 0xed, 0x01, 0xd9, 0x2f, 0x04, 0x12, 0x1d, 0x7f, 0xed, 0x26,
    0xef, 0xf8, 0x0c, 0xe1, 0xc3, 0xea, 0xe2, 0x1b, 0x20, 0x4c, 0xf5, 0xfe,
    0xd2, 0xd9, 0x23, 0xe7, 0x7f, 0x1a, 0x4e, 0x14, 0x1f, 0xf1, 0x09, 0x04,
    0xe6, 0x12, 0x26, 0x14, 0xdf, 0x69, 0xeb, 0x2c, 0x32, 0xe8, 0xf8, 0xf8,
    0xda, 0xee, 0x27, 0xf0, 0xc0, 0xe3, 0x00, 0x60, 0xed, 0x40, 0x25, 0x77,
    0xc4, 0x7f, 0xce, 0x09, 0xc3, 0x45, 0x48, 0x1f, 0x3a, 0x50, 0x52, 0xc8,
    0x57, 0xda, 0xf1, 0x13, 0xf0, 0x7a, 0xcc, 0x2b, 0x57, 0x74, 0xdb, 0x4c,
    0x20, 0x54, 0xb5, 0xfc, 0x40, 0xc5, 0xc3, 0x1a, 0x6d, 0xd8, 0x10, 0xf6,
    0x2d, 0xeb, 0xff, 0x1c, 0x3b, 0x47, 0x7f, 0xf4, 0xde, 0x7a, 0xec, 0xe0,
    0x5f, 0x43, 0xec, 0xbe, 0xd8, 0xd5, 0xd9, 0x1e, 0xec, 0x4f, 0x72, 0x54,
    0x6e, 0x5d, 0xe3, 0x3f, 0x0c, 0x2d, 0x15, 0x81, 0x20, 0xc5, 0x1b, 0x24,
    0xd5, 0x52, 0x9d, 0xd2, 0x65, 0xf4, 0x70, 0x35, 0xd8, 0x76, 0xc1, 0x03,
    0xfc, 0x0d, 0x77, 0xeb, 0xe5, 0x3a, 0xdd, 0xfb, 0xe9, 0xca, 0x2b, 0xe1,
    0xda, 0xd5, 0x7f, 0xfd, 0xb7, 0xfb, 0x00, 0xea, 0xd5, 0x41, 0x4e, 0x21,
    0x12, 0x33, 0x04, 0x06, 0xe9, 0x2b, 0x46, 0x5e, 0xeb, 0xd0, 0xd6, 0xeb,
    0xf1, 0x3c, 0xfe, 0x02, 0xc3, 0xf9, 0xd8, 0x03, 0xfc, 0xf2, 0x08, 0xc3,
    0xf6, 0x06, 0x0b, 0x52, 0x7f, 0xdc, 0xf9, 0x1b, 0xe3, 0x53, 0xf2, 0x18,
    0x10, 0x09, 0xf4, 0xf8, 0xd6, 0xf8, 0xe0, 0x2b, 0xc0, 0xfb, 0x6a, 0x4c,
    0x21, 0x5e, 0xfc, 0x70, 0xce, 0x1f, 0xcf, 0xc7, 0xb6, 0x1a, 0x27, 0xf6,
    0xdd, 0x0e, 0x0d, 0xd6, 0x55, 0x03, 0x6d, 0x09, 0xd7, 0x39, 0xf3, 0x47,
    0x7f, 0xe7, 0x56, 0x22, 0x23, 0x0d, 0x7b, 0xc7, 0x9b, 0xba, 0x20, 0xd6,
    0x17, 0x06, 0x7f, 0x20, 0xfe, 0xed, 0xfb, 0xe0, 0x23, 0x73, 0xed, 0x5e,
    0xf1, 0xde, 0x13, 0xea, 0x7c, 0xcc, 0xf7, 0x02, 0x1d, 0xed, 0x19, 0xc7,
    0xc7, 0xf7, 0x7f, 0x24, 0x4d, 0x62, 0x25, 0x10, 0xd2, 0x6f, 0xb5, 0x1f,
    0x3c, 0x21, 0x27, 0xf8, 0xe5, 0xda, 0xea, 0xff, 0x57, 0xd4, 0x6d, 0x4c,
    0xde, 0x31, 0xef, 0x0a, 0x51, 0xdb, 0x59, 0x50, 0x96, 0xff, 0xff, 0xff,
    0x04, 0x00, 0x00, 0x00, 0x40, 0x00, 0x00, 0x00, 0x88, 0x08, 0x00, 0x00,
    0x42, 0x07, 0x00, 0x00, 0xba, 0x06, 0x00, 0x00, 0x73, 0x06, 0x00, 0x00,
    0x41, 0x13, 0x00, 0x00, 0xab, 0x05, 0x00, 0x00, 0xc7, 0xfa, 0xff, 0xff,
    0x9a, 0x0e, 0x00, 0x00, 0xba, 0x03, 0x00, 0x00, 0x21, 0x0a, 0x00, 0x00,
    0x6a, 0xff, 0xff, 0xff, 0x00, 0x06, 0x00, 0x00, 0xed, 0x06, 0x00, 0x00,
    0xbb, 0x0c, 0x00, 0x00, 0x8f, 0x07, 0x00, 0x00, 0x4b, 0x18, 0x00, 0x00,
    0xe2, 0xff, 0xff, 0xff, 0x04, 0x00, 0x00, 0x00, 0x10, 0x00, 0x00, 0x00,
    0xc5, 0x51, 0x58, 0x81, 0x21, 0x61, 0x37, 0x25, 0xac, 0x3e, 0x96, 0x5c,
    0x3e, 0xd7, 0x67, 0xdf, 0x00, 0x00, 0x06, 0x00, 0x08, 0x00, 0x04, 0x00,
    0x06, 0x00, 0x00, 0x00, 0x04, 0x00, 0x00, 0x00, 0x04, 0x00, 0x00, 0x00,
    0xf3, 0xff, 0xff, 0xff, 0x54, 0xff, 0xff, 0xff, 0x58, 0xff, 0xff, 0xff,
    0x0f, 0x00, 0x00, 0x00, 0x4d, 0x4c, 0x49, 0x52, 0x20, 0x43, 0x6f, 0x6e,
    0x76, 0x65, 0x72, 0x74, 0x65, 0x64, 0x2e, 0x00, 0x01, 0x00, 0x00, 0x00,
    0x14, 0x00, 0x00, 0x00, 0x00, 0x00, 0x0e, 0x00, 0x18, 0x00, 0x14, 0x00,
    0x10, 0x00, 0x0c, 0x00, 0x08, 0x00, 0x04, 0x00, 0x0e, 0x00, 0x00, 0x00,
    0x14, 0x00, 0x00, 0x00, 0x1c, 0x00, 0x00, 0x00, 0x1c, 0x01, 0x00, 0x00,
    0x20, 0x01, 0x00, 0x00, 0x24, 0x01, 0x00, 0x00, 0x04, 0x00, 0x00, 0x00,
    0x6d, 0x61, 0x69, 0x6e, 0x00, 0x00, 0x00, 0x00, 0x04, 0x00, 0x00, 0x00,
    0xc4, 0x00, 0x00, 0x00, 0x7c, 0x00, 0x00, 0x00, 0x34, 0x00, 0x00, 0x00,
    0x10, 0x00, 0x00, 0x00, 0x00, 0x00, 0x0a, 0x00, 0x10, 0x00, 0x0c, 0x00,
    0x08, 0x00, 0x04, 0x00, 0x0a, 0x00, 0x00, 0x00, 0x0c, 0x00, 0x00, 0x00,
    0x10, 0x00, 0x00, 0x00, 0x01, 0x00, 0x00, 0x00, 0x01, 0x00, 0x00, 0x00,
    0x0a, 0x00, 0x00, 0x00, 0x01, 0x00, 0x00, 0x00, 0x09, 0x00, 0x00, 0x00,
    0xca, 0xff, 0xff, 0xff, 0x14, 0x00, 0x00, 0x00, 0x00, 0x00, 0x00, 0x08,
    0x10, 0x00, 0x00, 0x00, 0x14, 0x00, 0x00, 0x00, 0x04, 0x00, 0x04, 0x00,
    0x04, 0x00, 0x00, 0x00, 0x01, 0x00, 0x00, 0x00, 0x09, 0x00, 0x00, 0x00,
    0x03, 0x00, 0x00, 0x00, 0x08, 0x00, 0x00, 0x00, 0x02, 0x00, 0x00, 0x00,
    0x01, 0x00, 0x00, 0x00, 0x00, 0x00, 0x0e, 0x00, 0x14, 0x00, 0x00, 0x00,
    0x10, 0x00, 0x0c, 0x00, 0x0b, 0x00, 0x04, 0x00, 0x0e, 0x00, 0x00, 0x00,
    0x10, 0x00, 0x00, 0x00, 0x00, 0x00, 0x00, 0x08, 0x10, 0x00, 0x00, 0x00,
    0x14, 0x00, 0x00, 0x00, 0xba, 0xff, 0xff, 0xff, 0x00, 0x00, 0x00, 0x01,
    0x01, 0x00, 0x00, 0x00, 0x08, 0x00, 0x00, 0x00, 0x03, 0x00, 0x00, 0x00,
    0x07, 0x00, 0x00, 0x00, 0x04, 0x00, 0x00, 0x00, 0x03, 0x00, 0x00, 0x00,
    0x00, 0x00, 0x0e, 0x00, 0x16, 0x00, 0x00, 0x00, 0x10, 0x00, 0x0c, 0x00,
    0x0b, 0x00, 0x04, 0x00, 0x0e, 0x00, 0x00, 0x00, 0x18, 0x00, 0x00, 0x00,
    0x00, 0x00, 0x00, 0x08, 0x18, 0x00, 0x00, 0x00, 0x1c, 0x00, 0x00, 0x00,
    0x00, 0x00, 0x06, 0x00, 0x08, 0x00, 0x07, 0x00, 0x06, 0x00, 0x00, 0x00,
    0x00, 0x00, 0x00, 0x01, 0x01, 0x00, 0x00, 0x00, 0x07, 0x00, 0x00, 0x00,
    0x03, 0x00, 0x00, 0x00, 0x00, 0x00, 0x00, 0x00, 0x06, 0x00, 0x00, 0x00,
    0x05, 0x00, 0x00, 0x00, 0x01, 0x00, 0x00, 0x00, 0x0a, 0x00, 0x00, 0x00,
    0x01, 0x00, 0x00, 0x00, 0x00, 0x00, 0x00, 0x00, 0x0b, 0x00, 0x00, 0x00,
    0x60, 0x09, 0x00, 0x00, 0xe8, 0x08, 0x00, 0x00, 0x6c, 0x08, 0x00, 0x00,
    0x58, 0x07, 0x00, 0x00, 0x3c, 0x06, 0x00, 0x00, 0x68, 0x04, 0x00, 0x00,
    0x8c, 0x02, 0x00, 0x00, 0xd8, 0x01, 0x00, 0x00, 0x1c, 0x01, 0x00, 0x00,
    0x80, 0x00, 0x00, 0x00, 0x04, 0x00, 0x00, 0x00, 0xe2, 0xf6, 0xff, 0xff,
    0x00, 0x00, 0x00, 0x01, 0x18, 0x00, 0x00, 0x00, 0x20, 0x00, 0x00, 0x00,
    0x3c, 0x00, 0x00, 0x00, 0x0b, 0x00, 0x00, 0x00, 0x00, 0x00, 0x00, 0x09,
    0x50, 0x00, 0x00, 0x00, 0x02, 0x00, 0x00, 0x00, 0xff, 0xff, 0xff, 0xff,
    0x01, 0x00, 0x00, 0x00, 0xcc, 0xf6, 0xff, 0xff, 0x08, 0x00, 0x00, 0x00,
    0x10, 0x00, 0x00, 0x00, 0x01, 0x00, 0x00, 0x00, 0x80, 0xff, 0xff, 0xff,
    0xff, 0xff, 0xff, 0xff, 0x01, 0x00, 0x00, 0x00, 0x00, 0x00, 0x80, 0x3b,
    0x1b, 0x00, 0x00, 0x00, 0x53, 0x74, 0x61, 0x74, 0x65, 0x66, 0x75, 0x6c,
    0x50, 0x61, 0x72, 0x74, 0x69, 0x74, 0x69, 0x6f, 0x6e, 0x65, 0x64, 0x43,
    0x61, 0x6c, 0x6c, 0x5f, 0x31, 0x3a, 0x30, 0x00, 0x02, 0x00, 0x00, 0x00,
    0x01, 0x00, 0x00, 0x00, 0x01, 0x00, 0x00, 0x00, 0x5a, 0xf7, 0xff, 0xff,
    0x00, 0x00, 0x00, 0x01, 0x18, 0x00, 0x00, 0x00, 0x20, 0x00, 0x00, 0x00,
    0x3c, 0x00, 0x00, 0x00, 0x0a, 0x00, 0x00, 0x00, 0x00, 0x00, 0x00, 0x09,
    0x70, 0x00, 0x00, 0x00, 0x02, 0x00, 0x00, 0x00, 0xff, 0xff, 0xff, 0xff,
    0x01, 0x00, 0x00, 0x00, 0x44, 0xf7, 0xff, 0xff, 0x08, 0x00, 0x00, 0x00,
    0x10, 0x00, 0x00, 0x00, 0x01, 0x00, 0x00, 0x00, 0x0f, 0x00, 0x00, 0x00,
    0x00, 0x00, 0x00, 0x00, 0x01, 0x00, 0x00, 0x00, 0xe9, 0x53, 0x39, 0x3d,
    0x38, 0x00, 0x00, 0x00, 0x73, 0x65, 0x71, 0x75, 0x65, 0x6e, 0x74, 0x69,
    0x61, 0x6c, 0x5f, 0x31, 0x2f, 0x64, 0x65, 0x6e, 0x73, 0x65, 0x5f, 0x32,
    0x5f, 0x31, 0x2f, 0x4d, 0x61, 0x74, 0x4d, 0x75, 0x6c, 0x3b, 0x73, 0x65,
    0x71, 0x75, 0x65, 0x6e, 0x74, 0x69, 0x61, 0x6c, 0x5f, 0x31, 0x2f, 0x64,
    0x65, 0x6e, 0x73, 0x65, 0x5f, 0x32, 0x5f, 0x31, 0x2f, 0x41, 0x64, 0x64,
    0x00, 0x00, 0x00, 0x00, 0x02, 0x00, 0x00, 0x00, 0x01, 0x00, 0x00, 0x00,
    0x01, 0x00, 0x00, 0x00, 0xf2, 0xf7, 0xff, 0xff, 0x00, 0x00, 0x00, 0x01,
    0x18, 0x00, 0x00, 0x00, 0x20, 0x00, 0x00, 0x00, 0x3c, 0x00, 0x00, 0x00,
    0x09, 0x00, 0x00, 0x00, 0x00, 0x00, 0x00, 0x09, 0x90, 0x00, 0x00, 0x00,
    0x02, 0x00, 0x00, 0x00, 0xff, 0xff, 0xff, 0xff, 0x10, 0x00, 0x00, 0x00,
    0xdc, 0xf7, 0xff, 0xff, 0x08, 0x00, 0x00, 0x00, 0x10, 0x00, 0x00, 0x00,
    0x01, 0x00, 0x00, 0x00, 0x80, 0xff, 0xff, 0xff, 0xff, 0xff, 0xff, 0xff,
    0x01, 0x00, 0x00, 0x00, 0x04, 0x95, 0x56, 0x3c, 0x58, 0x00, 0x00, 0x00,
    0x73, 0x65, 0x71, 0x75, 0x65, 0x6e, 0x74, 0x69, 0x61, 0x6c, 0x5f, 0x31,
    0x2f, 0x64, 0x65, 0x6e, 0x73, 0x65, 0x5f, 0x31, 0x5f, 0x32, 0x2f, 0x4d,
    0x61, 0x74, 0x4d, 0x75, 0x6c, 0x3b, 0x73, 0x65, 0x71, 0x75, 0x65, 0x6e,
    0x74, 0x69, 0x61, 0x6c, 0x5f, 0x31, 0x2f, 0x64, 0x65, 0x6e, 0x73, 0x65,
    0x5f, 0x31, 0x5f, 0x32, 0x2f, 0x52, 0x65, 0x6c, 0x75, 0x3b, 0x73, 0x65,
    0x71, 0x75, 0x65, 0x6e, 0x74, 0x69, 0x61, 0x6c, 0x5f, 0x31, 0x2f, 0x64,
    0x65, 0x6e, 0x73, 0x65, 0x5f, 0x31, 0x5f, 0x32, 0x2f, 0x42, 0x69, 0x61,
    0x73, 0x41, 0x64, 0x64, 0x00, 0x00, 0x00, 0x00, 0x02, 0x00, 0x00, 0x00,
    0x01, 0x00, 0x00, 0x00, 0x10, 0x00, 0x00, 0x00, 0xaa, 0xf8, 0xff, 0xff,
    0x00, 0x00, 0x00, 0x01, 0x18, 0x00, 0x00, 0x00, 0x20, 0x00, 0x00, 0x00,
    0x3c, 0x00, 0x00, 0x00, 0x08, 0x00, 0x00, 0x00, 0x00, 0x00, 0x00, 0x09,
    0x88, 0x00, 0x00, 0x00, 0x02, 0x00, 0x00, 0x00, 0xff, 0xff, 0xff, 0xff,
    0x20, 0x00, 0x00, 0x00, 0x94, 0xf8, 0xff, 0xff, 0x08, 0x00, 0x00, 0x00,
    0x10, 0x00, 0x00, 0x00, 0x01, 0x00, 0x00, 0x00, 0x80, 0xff, 0xff, 0xff,
    0xff, 0xff, 0xff, 0xff, 0x01, 0x00, 0x00, 0x00, 0x1f, 0x71, 0x8b, 0x3c,
    0x52, 0x00, 0x00, 0x00, 0x73, 0x65, 0x71, 0x75, 0x65, 0x6e, 0x74, 0x69,
    0x61, 0x6c, 0x5f, 0x31, 0x2f, 0x64, 0x65, 0x6e, 0x73, 0x65, 0x5f, 0x31,
    0x2f, 0x4d, 0x61, 0x74, 0x4d, 0x75, 0x6c, 0x3b, 0x73, 0x65, 0x71, 0x75,
    0x65, 0x6e, 0x74, 0x69, 0x61, 0x6c, 0x5f, 0x31, 0x2f, 0x64, 0x65, 0x6e,
    0x73, 0x65, 0x5f, 0x31, 0x2f, 0x52, 0x65, 0x6c, 0x75, 0x3b, 0x73, 0x65,
    0x71, 0x75, 0x65, 0x6e, 0x74, 0x69, 0x61, 0x6c, 0x5f, 0x31, 0x2f, 0x64,
    0x65, 0x6e, 0x73, 0x65, 0x5f, 0x31, 0x2f, 0x42, 0x69, 0x61, 0x73, 0x41,
    0x64, 0x64, 0x00, 0x00, 0x02, 0x00, 0x00, 0x00, 0x01, 0x00, 0x00, 0x00,
    0x20, 0x00, 0x00, 0x00, 0xce, 0xf9, 0xff, 0xff, 0x00, 0x00, 0x00, 0x01,
    0x14, 0x00, 0x00, 0x00, 0xa8, 0x01, 0x00, 0x00, 0x07, 0x00, 0x00, 0x00,
    0x00, 0x00, 0x00, 0x09, 0xb4, 0x01, 0x00, 0x00, 0x34, 0xf9, 0xff, 0xff,
    0x08, 0x00, 0x00, 0x00, 0x0c, 0x01, 0x00, 0x00, 0x20, 0x00, 0x00, 0x00,
    0x00, 0x00, 0x00, 0x00, 0x00, 0x00, 0x00, 0x00, 0x00, 0x00, 0x00, 0x00,
    0x00, 0x00, 0x00, 0x00, 0x00, 0x00, 0x00, 0x00, 0x00, 0x00, 0x00, 0x00,
    0x00, 0x00, 0x00, 0x00, 0x00, 0x00, 0x00, 0x00, 0x00, 0x00, 0x00, 0x00,
    0x00, 0x00, 0x00, 0x00, 0x00, 0x00, 0x00, 0x00, 0x00, 0x00, 0x00, 0x00,
    0x00, 0x00, 0x00, 0x00, 0x00, 0x00, 0x00, 0x00, 0x00, 0x00, 0x00, 0x00,
    0x00, 0x00, 0x00, 0x00, 0x00, 0x00, 0x00, 0x00, 0x00, 0x00, 0x00, 0x00,
    0x00, 0x00, 0x00, 0x00, 0x00, 0x00, 0x00, 0x00, 0x00, 0x00, 0x00, 0x00,
    0x00, 0x00, 0x00, 0x00, 0x00, 0x00, 0x00, 0x00, 0x00, 0x00, 0x00, 0x00,
    0x00, 0x00, 0x00, 0x00, 0x00, 0x00, 0x00, 0x00, 0x00, 0x00, 0x00, 0x00,
    0x00, 0x00, 0x00, 0x00, 0x00, 0x00, 0x00, 0x00, 0x00, 0x00, 0x00, 0x00,
    0x00, 0x00, 0x00, 0x00, 0x00, 0x00, 0x00, 0x00, 0x00, 0x00, 0x00, 0x00,
    0x00, 0x00, 0x00, 0x00, 0x00, 0x00, 0x00, 0x00, 0x00, 0x00, 0x00, 0x00,
    0x00, 0x00, 0x00, 0x00, 0x00, 0x00, 0x00, 0x00, 0x00, 0x00, 0x00, 0x00,
    0x00, 0x00, 0x00, 0x00, 0x00, 0x00, 0x00, 0x00, 0x00, 0x00, 0x00, 0x00,
    0x00, 0x00, 0x00, 0x00, 0x00, 0x00, 0x00, 0x00, 0x00, 0x00, 0x00, 0x00,
    0x00, 0x00, 0x00, 0x00, 0x00, 0x00, 0x00, 0x00, 0x00, 0x00, 0x00, 0x00,
    0x00, 0x00, 0x00, 0x00, 0x00, 0x00, 0x00, 0x00, 0x00, 0x00, 0x00, 0x00,
    0x00, 0x00, 0x00, 0x00, 0x00, 0x00, 0x00, 0x00, 0x00, 0x00, 0x00, 0x00,
    0x00, 0x00, 0x00, 0x00, 0x00, 0x00, 0x00, 0x00, 0x00, 0x00, 0x00, 0x00,
    0x00, 0x00, 0x00, 0x00, 0x00, 0x00, 0x00, 0x00, 0x00, 0x00, 0x00, 0x00,
    0x00, 0x00, 0x00, 0x00, 0x00, 0x00, 0x00, 0x00, 0x00, 0x00, 0x00, 0x00,
    0x00, 0x00, 0x00, 0x00, 0x00, 0x00, 0x00, 0x00, 0x20, 0x00, 0x00, 0x00,
    0x69, 0x3f, 0x60, 0x3a, 0x59, 0xd8, 0x88, 0x3a, 0xb8, 0x8d, 0xb2, 0x3a,
    0x3a, 0x54, 0xf2, 0x3a, 0x37, 0x1a, 0xe0, 0x3a, 0x47, 0xdf, 0xce, 0x3a,
    0x80, 0x12, 0x60, 0x3a, 0xa8, 0xe1, 0x8f, 0x3a, 0x5b, 0x73, 0x67, 0x3a,
    0x5f, 0x1c, 0x9f, 0x3a, 0x89, 0x6a, 0x58, 0x3b, 0xa5, 0xd7, 0xa6, 0x3a,
    0x80, 0xef, 0x72, 0x3a, 0x4c, 0xf1, 0x1c, 0x3a, 0x30, 0x11, 0xe6, 0x39,
    0x9c, 0xcf, 0xc0, 0x39, 0xc3, 0xe7, 0x6f, 0x3a, 0x41, 0xa9, 0x41, 0x3a,
    0xa6, 0x41, 0x81, 0x3a, 0xa2, 0x73, 0x93, 0x3a, 0x79, 0xcc, 0xf5, 0x3a,
    0x0f, 0x50, 0x95, 0x3a, 0x1c, 0x8c, 0x95, 0x3a, 0xf9, 0x27, 0x9c, 0x3a,
    0x6d, 0x2a, 0x20, 0x3b, 0x5d, 0xe3, 0xdb, 0x3a, 0xbf, 0x0f, 0xad, 0x3a,
    0x8b, 0x0e, 0x9e, 0x39, 0xe9, 0x53, 0x1a, 0x3b, 0x96, 0x5c, 0x8d, 0x3a,
    0xf8, 0x53, 0xc0, 0x3a, 0x8d, 0x1b, 0x98, 0x3a, 0x12, 0x00, 0x00, 0x00,
    0x74, 0x66, 0x6c, 0x2e, 0x70, 0x73, 0x65, 0x75, 0x64, 0x6f, 0x5f, 0x71,
    0x63, 0x6f, 0x6e, 0x73, 0x74, 0x35, 0x00, 0x00, 0x02, 0x00, 0x00, 0x00,
    0x20, 0x00, 0x00, 0x00, 0x4c, 0x00, 0x00, 0x00, 0xa6, 0xfb, 0xff, 0xff,
    0x00, 0x00, 0x00, 0x01, 0x14, 0x00, 0x00, 0x00, 0xa4, 0x01, 0x00, 0x00,
    0x06, 0x00, 0x00, 0x00, 0x00, 0x00, 0x00, 0x02, 0xb0, 0x01, 0x00, 0x00,
    0x0c, 0xfb, 0xff, 0xff, 0x08, 0x00, 0x00, 0x00, 0x08, 0x01, 0x00, 0x00,
    0x20, 0x00, 0x00, 0x00, 0x00, 0x00, 0x00, 0x00, 0x00, 0x00, 0x00, 0x00,
    0x00, 0x00, 0x00, 0x00, 0x00, 0x00, 0x00, 0x00, 0x00, 0x00, 0x00, 0x00,
    0x00, 0x00, 0x00, 0x00, 0x00, 0x00, 0x00, 0x00, 0x00, 0x00, 0x00, 0x00,
    0x00, 0x00, 0x00, 0x00, 0x00, 0x00, 0x00, 0x00, 0x00, 0x00, 0x00, 0x00,
    0x00, 0x00, 0x00, 0x00, 0x00, 0x00, 0x00, 0x00, 0x00, 0x00, 0x00, 0x00,
    0x00, 0x00, 0x00, 0x00, 0x00, 0x00, 0x00, 0x00, 0x00, 0x00, 0x00, 0x00,
    0x00, 0x00, 0x00, 0x00, 0x00, 0x00, 0x00, 0x00, 0x00, 0x00, 0x00, 0x00,
    0x00, 0x00, 0x00, 0x00, 0x00, 0x00, 0x00, 0x00, 0x00, 0x00, 0x00, 0x00,
    0x00, 0x00, 0x00, 0x00, 0x00, 0x00, 0x00, 0x00, 0x00, 0x00, 0x00, 0x00,
    0x00, 0x00, 0x00, 0x00, 0x00, 0x00, 0x00, 0x00, 0x00, 0x00, 0x00, 0x00,
    0x00, 0x00, 0x00, 0x00, 0x00, 0x00, 0x00, 0x00, 0x00, 0x00, 0x00, 0x00,
    0x00, 0x00, 0x00, 0x00, 0x00, 0x00, 0x00, 0x00, 0x00, 0x00, 0x00, 0x00,
    0x00, 0x00, 0x00, 0x00, 0x00, 0x00, 0x00, 0x00, 0x00, 0x00, 0x00, 0x00,
    0x00, 0x00, 0x00, 0x00, 0x00, 0x00, 0x00, 0x00, 0x00, 0x00, 0x00, 0x00,
    0x00, 0x00, 0x00, 0x00, 0x00, 0x00, 0x00, 0x00, 0x00, 0x00, 0x00, 0x00,
    0x00, 0x00, 0x00, 0x00, 0x00, 0x00, 0x00, 0x00, 0x00, 0x00, 0x00, 0x00,
    0x00, 0x00, 0x00, 0x00, 0x00, 0x00, 0x00, 0x00, 0x00, 0x00, 0x00, 0x00,
    0x00, 0x00, 0x00, 0x00, 0x00, 0x00, 0x00, 0x00, 0x00, 0x00, 0x00, 0x00,
    0x00, 0x00, 0x00, 0x00, 0x00, 0x00, 0x00, 0x00, 0x00, 0x00, 0x00, 0x00,
    0x00, 0x00, 0x00, 0x00, 0x00, 0x00, 0x00, 0x00, 0x00, 0x00, 0x00, 0x00,
    0x00, 0x00, 0x00, 0x00, 0x00, 0x00, 0x00, 0x00, 0x00, 0x00, 0x00, 0x00,
    0x00, 0x00, 0x00, 0x00, 0x00, 0x00, 0x00, 0x00, 0x20, 0x00, 0x00, 0x00,
    0x0d, 0xc6, 0x11, 0x38, 0x00, 0xea, 0x31, 0x38, 0xc9, 0x23, 0x68, 0x38,
    0x0b, 0x87, 0x9d, 0x38, 0xe0, 0xad, 0x91, 0x38, 0x84, 0x7a, 0x86, 0x38,
    0xdc, 0xa8, 0x11, 0x38, 0xe8, 0x0f, 0x3b, 0x38, 0xb8, 0x74, 0x16, 0x38,
    0xad, 0xdc, 0x4e, 0x38, 0xc5, 0xae, 0x0c, 0x39, 0xf4, 0xe9, 0x58, 0x38,
    0xfb, 0xeb, 0x1d, 0x38, 0x04, 0x0b, 0xcc, 0x37, 0x7e, 0x8e, 0x95, 0x37,
    0x0e, 0xad, 0x7a, 0x37, 0xb5, 0xf3, 0x1b, 0x38, 0x05, 0xc8, 0xfb, 0x37,
    0x46, 0x0c, 0x28, 0x38, 0x2d, 0xb4, 0x3f, 0x38, 0x74, 0xc8, 0x9f, 0x38,
    0x96, 0x1f, 0x42, 0x38, 0xa8, 0x6d, 0x42, 0x38, 0x45, 0x05, 0x4b, 0x38,
    0xc7, 0x3b, 0xd0, 0x38, 0x8f, 0xf0, 0x8e, 0x38, 0xdd, 0xff, 0x60, 0x38,
    0xde, 0x7d, 0x4d, 0x37, 0xbd, 0xa4, 0xc8, 0x38, 0x3e, 0xc9, 0x37, 0x38,
    0x4f, 0x0c, 0x7a, 0x38, 0xce, 0xc1, 0x45, 0x38, 0x12, 0x00, 0x00, 0x00,
    0x74, 0x66, 0x6c, 0x2e, 0x70, 0x73, 0x65, 0x75, 0x64, 0x6f, 0x5f, 0x71,
    0x63, 0x6f, 0x6e, 0x73, 0x74, 0x34, 0x00, 0x00, 0x01, 0x00, 0x00, 0x00,
    0x20, 0x00, 0x00, 0x00, 0x76, 0xfd, 0xff, 0xff, 0x00, 0x00, 0x00, 0x01,
    0x14, 0x00, 0x00, 0x00, 0xe8, 0x00, 0x00, 0x00, 0x05, 0x00, 0x00, 0x00,
    0x00, 0x00, 0x00, 0x09, 0xf4, 0x00, 0x00, 0x00, 0xdc, 0xfc, 0xff, 0xff,
    0x08, 0x00, 0x00, 0x00, 0x8c, 0x00, 0x00, 0x00, 0x10, 0x00, 0x00, 0x00,
    0x00, 0x00, 0x00, 0x00, 0x00, 0x00, 0x00, 0x00, 0x00, 0x00, 0x00, 0x00,
    0x00, 0x00, 0x00, 0x00, 0x00, 0x00, 0x00, 0x00, 0x00, 0x00, 0x00, 0x00,
    0x00, 0x00, 0x00, 0x00, 0x00, 0x00, 0x00, 0x00, 0x00, 0x00, 0x00, 0x00,
    0x00, 0x00, 0x00, 0x00, 0x00, 0x00, 0x00, 0x00, 0x00, 0x00, 0x00, 0x00,
    0x00, 0x00, 0x00, 0x00, 0x00, 0x00, 0x00, 0x00, 0x00, 0x00, 0x00, 0x00,
    0x00, 0x00, 0x00, 0x00, 0x00, 0x00, 0x00, 0x00, 0x00, 0x00, 0x00, 0x00,
    0x00, 0x00, 0x00, 0x00, 0x00, 0x00, 0x00, 0x00, 0x00, 0x00, 0x00, 0x00,
    0x00, 0x00, 0x00, 0x00, 0x00, 0x00, 0x00, 0x00, 0x00, 0x00, 0x00, 0x00,
    0x00, 0x00, 0x00, 0x00, 0x00, 0x00, 0x00, 0x00, 0x00, 0x00, 0x00, 0x00,
    0x00, 0x00, 0x00, 0x00, 0x00, 0x00, 0x00, 0x00, 0x00, 0x00, 0x00, 0x00,
    0x00, 0x00, 0x00, 0x00, 0x00, 0x00, 0x00, 0x00, 0x00, 0x00, 0x00, 0x00,
    0x10, 0x00, 0x00, 0x00, 0xe7, 0xe7, 0xd6, 0x3a, 0xa9, 0x73, 0xc5, 0x3a,
    0xcd, 0x19, 0xd1, 0x3a, 0x84, 0x12, 0x38, 0x3b, 0xac, 0x80, 0x89, 0x3a,
    0x7a, 0xf5, 0x2a, 0x3b, 0x6b, 0x84, 0x9c, 0x3a, 0x00, 0x01, 0x61, 0x3a,
    0x7d, 0x9b, 0x01, 0x3b, 0x77, 0x85, 0xc4, 0x3a, 0x96, 0xc1, 0x07, 0x3b,
    0xac, 0x80, 0xf9, 0x3a, 0xaa, 0x24, 0x8a, 0x3a, 0x69, 0x89, 0x3f, 0x3a,
    0x9f, 0x9b, 0xd6, 0x3a, 0x03, 0x4a, 0x41, 0x3a, 0x12, 0x00, 0x00, 0x00,
    0x74, 0x66, 0x6c, 0x2e, 0x70, 0x73, 0x65, 0x75, 0x64, 0x6f, 0x5f, 0x71,
    0x63, 0x6f, 0x6e, 0x73, 0x74, 0x33, 0x00, 0x00, 0x02, 0x00, 0x00, 0x00,
    0x10, 0x00, 0x00, 0x00, 0x20, 0x00, 0x00, 0x00, 0x8e, 0xfe, 0xff, 0xff,
    0x00, 0x00, 0x00, 0x01, 0x14, 0x00, 0x00, 0x00, 0xe4, 0x00, 0x00, 0x00,
    0x04, 0x00, 0x00, 0x00, 0x00, 0x00, 0x00, 0x02, 0xf0, 0x00, 0x00, 0x00,
    0xf4, 0xfd, 0xff, 0xff, 0x08, 0x00, 0x00, 0x00, 0x88, 0x00, 0x00, 0x00,
    0x10, 0x00, 0x00, 0x00, 0x00, 0x00, 0x00, 0x00, 0x00, 0x00, 0x00, 0x00,
    0x00, 0x00, 0x00, 0x00, 0x00, 0x00, 0x00, 0x00, 0x00, 0x00, 0x00, 0x00,
    0x00, 0x00, 0x00, 0x00, 0x00, 0x00, 0x00, 0x00, 0x00, 0x00, 0x00, 0x00,
    0x00, 0x00, 0x00, 0x00, 0x00, 0x00, 0x00, 0x00, 0x00, 0x00, 0x00, 0x00,
    0x00, 0x00, 0x00, 0x00, 0x00, 0x00, 0x00, 0x00, 0x00, 0x00, 0x00, 0x00,
    0x00, 0x00, 0x00, 0x00, 0x00, 0x00, 0x00, 0x00, 0x00, 0x00, 0x00, 0x00,
    0x00, 0x00, 0x00, 0x00, 0x00, 0x00, 0x00, 0x00, 0x00, 0x00, 0x00, 0x00,
    0x00, 0x00, 0x00, 0x00, 0x00, 0x00, 0x00, 0x00, 0x00, 0x00, 0x00, 0x00,
    0x00, 0x00, 0x00, 0x00, 0x00, 0x00, 0x00, 0x00, 0x00, 0x00, 0x00, 0x00,
    0x00, 0x00, 0x00, 0x00, 0x00, 0x00, 0x00, 0x00, 0x00, 0x00, 0x00, 0x00,
    0x00, 0x00, 0x00, 0x00, 0x00, 0x00, 0x00, 0x00, 0x00, 0x00, 0x00, 0x00,
    0x10, 0x00, 0x00, 0x00, 0xc2, 0x1d, 0xea, 0x37, 0x19, 0x1a, 0xd7, 0x37,
    0xd0, 0xca, 0xe3, 0x37, 0xc8, 0x86, 0x48, 0x38, 0x40, 0xcb, 0x95, 0x37,
    0xa9, 0x3d, 0x3a, 0x38, 0x1f, 0x82, 0xaa, 0x37, 0xef, 0x1d, 0x75, 0x37,
    0x64, 0x31, 0x0d, 0x38, 0x9d, 0x16, 0xd6, 0x37, 0x33, 0xe4, 0x13, 0x38,
    0x1d, 0xe7, 0x07, 0x38, 0xe6, 0x7d, 0x96, 0x37, 0x7e, 0xa8, 0x50, 0x37,
    0xa8, 0xca, 0xe9, 0x37, 0x31, 0x91, 0x52, 0x37, 0x12, 0x00, 0x00, 0x00,
    0x74, 0x66, 0x6c, 0x2e, 0x70, 0x73, 0x65, 0x75, 0x64, 0x6f, 0x5f, 0x71,
    0x63, 0x6f, 0x6e, 0x73, 0x74, 0x32, 0x00, 0x00, 0x01, 0x00, 0x00, 0x00,
    0x10, 0x00, 0x00, 0x00, 0x9e, 0xff, 0xff, 0xff, 0x00, 0x00, 0x00, 0x01,
    0x14, 0x00, 0x00, 0x00, 0x30, 0x00, 0x00, 0x00, 0x03, 0x00, 0x00, 0x00,
    0x00, 0x00, 0x00, 0x09, 0x3c, 0x00, 0x00, 0x00, 0x04, 0xff, 0xff, 0xff,
    0x08, 0x00, 0x00, 0x00, 0x10, 0x00, 0x00, 0x00, 0x01, 0x00, 0x00, 0x00,
    0x00, 0x00, 0x00, 0x00, 0x00, 0x00, 0x00, 0x00, 0x01, 0x00, 0x00, 0x00,
    0x20, 0x66, 0xcf, 0x3b, 0x12, 0x00, 0x00, 0x00, 0x74, 0x66, 0x6c, 0x2e,
    0x70, 0x73, 0x65, 0x75, 0x64, 0x6f, 0x5f, 0x71, 0x63, 0x6f, 0x6e, 0x73,
    0x74, 0x31, 0x00, 0x00, 0x02, 0x00, 0x00, 0x00, 0x01, 0x00, 0x00, 0x00,
    0x10, 0x00, 0x00, 0x00, 0x00, 0x00, 0x16, 0x00, 0x1c, 0x00, 0x18, 0x00,
    0x17, 0x00, 0x10, 0x00, 0x0c, 0x00, 0x08, 0x00, 0x00, 0x00, 0x00, 0x00,
    0x00, 0x00, 0x07, 0x00, 0x16, 0x00, 0x00, 0x00, 0x00, 0x00, 0x00, 0x01,
    0x14, 0x00, 0x00, 0x00, 0x30, 0x00, 0x00, 0x00, 0x02, 0x00, 0x00, 0x00,
    0x00, 0x00, 0x00, 0x02, 0x3c, 0x00, 0x00, 0x00, 0x7c, 0xff, 0xff, 0xff,
    0x08, 0x00, 0x00, 0x00, 0x10, 0x00, 0x00, 0x00, 0x01, 0x00, 0x00, 0x00,
    0x00, 0x00, 0x00, 0x00, 0x00, 0x00, 0x00, 0x00, 0x01, 0x00, 0x00, 0x00,
    0x18, 0xd8, 0xad, 0x38, 0x11, 0x00, 0x00, 0x00, 0x74, 0x66, 0x6c, 0x2e,
    0x70, 0x73, 0x65, 0x75, 0x64, 0x6f, 0x5f, 0x71, 0x63, 0x6f, 0x6e, 0x73,
    0x74, 0x00, 0x00, 0x00, 0x01, 0x00, 0x00, 0x00, 0x01, 0x00, 0x00, 0x00,
    0x00, 0x00, 0x16, 0x00, 0x20, 0x00, 0x1c, 0x00, 0x1b, 0x00, 0x14, 0x00,
    0x10, 0x00, 0x0c, 0x00, 0x00, 0x00, 0x00, 0x00, 0x08, 0x00, 0x07, 0x00,
    0x16, 0x00, 0x00, 0x00, 0x00, 0x00, 0x00, 0x01, 0x18, 0x00, 0x00, 0x00,
    0x2c, 0x00, 0x00, 0x00, 0x48, 0x00, 0x00, 0x00, 0x01, 0x00, 0x00, 0x00,
    0x00, 0x00, 0x00, 0x09, 0x60, 0x00, 0x00, 0x00, 0x02, 0x00, 0x00, 0x00,
    0xff, 0xff, 0xff, 0xff, 0x4c, 0x00, 0x00, 0x00, 0x0c, 0x00, 0x0c, 0x00,
    0x00, 0x00, 0x00, 0x00, 0x08, 0x00, 0x04, 0x00, 0x0c, 0x00, 0x00, 0x00,
    0x08, 0x00, 0x00, 0x00, 0x10, 0x00, 0x00, 0x00, 0x01, 0x00, 0x00, 0x00,
    0xef, 0xff, 0xff, 0xff, 0xff, 0xff, 0xff, 0xff, 0x01, 0x00, 0x00, 0x00,
    0x18, 0x6a, 0x26, 0x3d, 0x1d, 0x00, 0x00, 0x00, 0x73, 0x65, 0x72, 0x76,
    0x69, 0x6e, 0x67, 0x5f, 0x64, 0x65, 0x66, 0x61, 0x75, 0x6c, 0x74, 0x5f,
    0x69, 0x6e, 0x70, 0x75, 0x74, 0x5f, 0x6c, 0x61, 0x79, 0x65, 0x72, 0x3a,
    0x30, 0x00, 0x00, 0x00, 0x02, 0x00, 0x00, 0x00, 0x01, 0x00, 0x00, 0x00,
    0x4c, 0x00, 0x00, 0x00, 0x02, 0x00, 0x00, 0x00, 0x24, 0x00, 0x00, 0x00,
    0x04, 0x00, 0x00, 0x00, 0xf0, 0xff, 0xff, 0xff, 0x0e, 0x00, 0x00, 0x00,
    0x02, 0x00, 0x00, 0x00, 0x00, 0x00, 0x00, 0x0e, 0x0c, 0x00, 0x10, 0x00,
    0x0f, 0x00, 0x00, 0x00, 0x08, 0x00, 0x04, 0x00, 0x0c, 0x00, 0x00, 0x00,
    0x09, 0x00, 0x00, 0x00, 0x04, 0x00, 0x00, 0x00, 0x00, 0x00, 0x00, 0x09,
};
const unsigned int model_tflite_len = 6672;

#endif
